510C003C1
00C305100
110031005
104041400
44404D037
40000CCC3
4C10C0C31
17000100D
CD1404F04
0CD300410
04710000D
C4F041004
011CD4710
4CCD4073F
13703C343
C51F13050
01C7CC114
C303004C0
0D3100031
03C15C140
5115C7715
40000510C
0051013C1
7000341D0
DC7304144
04C1CC007
1D0C00100
50C317004
0CC330300
1C1040F10
FC3C03FC4
00F305DF4
03310403D
0F3C001C4
11C100103
14C030010
307013014
C4CC3D00C
33301F31C
5151D14D3
573040004
10CCC4704
041450033
C00140444
03C030C30
050C40007
44410C041
310F40034
0CC4113FC
040CC004C
4350C0C74
C3C331F70
0040C0111
3C0003C00
0544100CC
011C140C4
F5C400C1D
43D000301
CC00104C4
C1103F745
010000001
00C4C005C
C10D01301
CC13CC303
1100041C1
FF1011D44
CFD030C43
C7074740D
0C0003300
100F0440D
00500C4C0
41C0000DC
004000C44
0FCC004C1
0041030F0
405710040
C0071000F
0F34D5F00
0330070C0
137040303
0F0C0F001
3C41D4104
417CC4F30
34C01C533
0071500D1
1C7C5F70C
C53313030
CCCC0FC00
C31C01001
004000333
0004D0130
0D4F3C070
C0C4C1501
1C1140000
403F1C544
C0103F001
01D3001C7
430314374
0F5F01100
004F43003
0D0D04115
400C507CC
014300D50
43F44533D
C01007304
D00004051
000D3C0C1
004150714
13740413C
C30C00311
144130410
100C305C0
0D3440030
13DDC0001
00003F013
F04300303
C1D300C3D
11F4F0F1D
010307000
D10410C50
010530530
3FF0144C7
0FC7000CC
C4C1000CC
00034C370
0C0000C34
03003073F
DD5010070
D01000500
451054051
40001C003
000004000
1C00FD104
4004003C1
C0DC0C031
1000C0000
40010140C
0C4C31C14
C413C4000
333400F0C
0D1331401
00030C03C
0314C4010
C5410C003
03C0CC304
10C1000CF
CF0701053
4D4003013
0CDD04077
40475014C
30C013F00
C0C0CC45D
0403300C4
04F303C03
C0D003004
43C03443C
0C3044C03
C1D300004
C0C0D4115
0C7077F30
010C0703C
114514303
04C040100
10045050C
3101300C1
300170C01
C4305C334
431D4C404
0005340C0
71F7C5010
D3C7C4301
F04740430
C7D31C350
00015F410
00C00000C
037F40107
1000FF013
C3310004C
433404003
C0F0C00FF
04140C010
07CD10C03
0C0041F51
F1C104301
410473075
C40C0C414
704330C00
1171C0F00
0D0440F40
3C01F0010
54001004F
11F0D3010
040000103
5070C0010
C4C131140
400101040
DC0140145
000041531
0000C0030
40144037D
4C13DCF14
0C0000405
01D401001
440C10054
0041F5071
00C0F0134
0053F0310
03351003C
00030F405
CCC3D4C13
034C000CC
01D0F0CC1
4100C5033
0DF04D110
0F14041F3
44050CC44
3C330005C
F30000311
011444030
C03F055C0
000C01110
104D03507
C05CC4410
003F45310
000000400
C03304C31
15530C33F
55003F000
334F50330
335C30510
3410044C0
003503333
030000500
0037003C0
C00055DF4
1CF03000C
13C430701
01D040150
134C0CD00
C40540C14
000035100
0C344F001
10C001300
30C013710
510C00740
003400007
0DC300C30
F01040301
D03500450
3301C30FD
430513070
C403D4430
34C3D0D30
035003007
3C4044F30
0F1C0100C
0C0343F44
70000D001
0C5C4434F
01F04C035
13404DC00
400004044
0300C0400
F00301075
30D0C30C0
013340415
054530431
004000C00
C3040C300
C130D0700
4D4F003CC
11004C101
000CC0040
334001040
703F03001
004330130
043043000
00CC1C045
3D00504CC
01000DC00
C010C5010
003304314
31C000174
3050043C0
0003C430C
40C403400
17F0C4000
0C0F00000
3533CC000
C37033403
F0F00334F
0C00C0C44
70531C300
000005D00
0F0144001
0C01C3030
010333034
0C03300CF
300CF1C17
5043F0410
C370117D3
430C54C00
14D411130
43C11300C
4030CC533
0C1001C41
340FF100C
00040303C
007CC0CD4
C730004D1
0034400C1
0C00000C4
CCC030401
403050013
700100C33
F403D1CC5
403F443C1
3F001CC00
F44C0001C
0030C0015
444C3C434
04C015001
C44011000
40100447F
11703F10C
10307430D
3031C04C0
030031100
0C33034C3
0C3030330
40C04CCC1
0100F0013
000C10030
C340C01C1
003F47001
043300300
CC4004C50
45C00700C
FFD030D0C
44C0003F1
C0CC0F100
D0034CC00
504004000
700C73D00
0C0150114
000113405
441003D0D
0F0044040
1CD4500C3
0013C0304
44410C34C
004000340
C0F1C3004
0430CC040
7C170C000
C040C07D0
000D030C3
3D130034D
10000D0C1
44C37C041
C43730530
110010030
0140C047F
7C337C330
7100000C0
4000C3010
00C141000
7C4431C0C
4C0030300
105440137
D100730D0
3F117C74D
04110C050
40300C001
07C303300
D4130C33C
C0C0001F4
C30C0C030
04F033400
0003010CC
0144C00D0
F5C50D140
074000114
F53304030
471033300
004F05053
0010C110C
C03F0040C
C0C007100
0C4440040
431310010
C14D44407
000151500
C105104D1
0CD514001
3003C0307
F05C1004C
3054C30F3
0343F40CC
3CC0CC140
301CC0030
0F0CC3030
D00100001
43040C17C
C04143007
00C714034
F3F0CC003
5010400CC
CC03011F0
400400154
000004044
040040D3C
70301FC00
304340C0C
7013FF000
C00040D00
1C40F000D
0F40C0103
0100D0CD1
40D314544
1D1F0C000
034C35C0C
100010004
304010005
11301340C
3C4343000
7104C3C71
D40710014
4340C0004
CD0340401
004014C41
010100040
C401341C0
D05000130
43C0004F0
0F000000C
413FC40F4
0410C034C
00101010C
4C3001100
3014007C7
0400700DF
0003D1CFC
D01001003
0D070D03C
000000341
11D014500
511311000
0030C0010
0000C3333
30D007040
044CC0400
045074100
0740C01CF
5414CC0F4
0D4300413
34C010411
00C043005
C1CC00310
1C0003140
141304310
CC15C3C00
C0C0C0000
004473C33
00410303C
15F300004
C33104031
3000007CC
DC0D01D17
004C03C10
D000FF303
44505C00C
1C1011031
C71310403
01C1C1FC5
1001001F0
3C0F44D00
D00003C00
101000D1C
715305310
70007C110
4341F45C4
001030F1C
35D0F300C
100030000
5C0007C51
3D0450C07
3C3043D41
130014000
00514F103
55014011C
30FC1C400
3C0D0000D
30CC470C4
0400F410F
003134004
CC4100404
0C0710104
10700CD4F
301040140
033000147
C100404F0
F7D003D00
C00304130
000011FC3
01410C00F
0C3005451
03000000C
030C0003D
F0C0C0407
C350700C0
C4700104C

