D0134C3C3
033340130
0F07D5443
0C001D433
10110D541
4CCC01300
7C0040710
0C1034001
45D00C003
04C701000
0C4500C00
FC5000000
40153CC31
73F004410
043C000D0
044504403
004003173
CD11111CC
403F00000
0050430C3
C0104030C
400111CFC
04D0C7040
FF037F310
1CD1000D0
50C04C130
0CCC1C504
004000F00
40043D07D
31CF30D00
410410300
D000C01C0
031C30300
C0F700000
440007100
C4C000330
343030331
C00004104
400010305
340010331
015340D43
0C3C3C0C1
010040005
0001413F5
040C4170F
00C00F03C
0CC033F70
34F700014
C14000310
400D040C0
D04034C03
733C31033
FC30000F0
0001403D1
C333010C1
CCC0D000D
17D030030
401000044
0C3300000
000001110
074035070
17040C1CD
3304C0033
30474140C
430CD3C1C
3C010D1C0
101FC4D00
41C400005
714C01C33
007444D00
001D3C0D0
37401C035
017043C00
1F1300500
0001CD300
F0D0FC400
00C045004
013000041
30F31F0C0
C000C1C10
334F44310
14F04070C
03C447404
34010C100
4C0037007
C40170441
3113C4300
1CC000CC4
4C00D5051
000000100
403401C00
7C4034C51
0C0003F00
0D0300000
003400430
034001010
0C4CF3005
0D01030F0
703034410
333D4050D
4C000C000
40057CF3C
413C13031
000000F03
011440501
400000400
1110000DD
004000C11
00C00C014
1040CF030
C0C043C00
C44417300
0050C004D
044C30C0C
C57DF7007
000D13004
450100000
C0100030C
100301F41
1D10D400C
30C0170CC
F04044C11
00001DCC3
000FD5C00
0010341DC
714C0C440
100100000
1CC13D0DD
C44C003D1
01C030113
441100044
50CD0C047
1F010104C
007CD00F0
C00000040
C1C304034
04731100C
0404014C5
0CC00D00D
0D0004C31
01001005C
000007300
030F0131D
CC4305340
013000000
D30010147
400300430
10001310C
00740010C
C1F300704
C07D10770
711C30F00
0C3310C41
03037CD00
0CF000004
500040000
C00C4D411
07C3C4001
3001FC404
F1000D4D4
FF0001C10
D030330C1
333710700
C00530100
40700130C
5003F0C10
D03003000
313104170
300030313
1C003030C
000330C00
101400003
01CCC4117
05C4F10C0
10C3301D0
070004003
017000371
70CF0C040
00400CF0C
D3C103500
C3C100301
40C403734
133700331
030C0011F
400374444
4003C41C1
0C3003400
0150C0740
D044C0C03
030400500
1CC0CF040
001050C0C
0010F04C4
3CC05000C
4010FCC00
000040000
00D000101
05100C00D
1F0F4010D
03D033403
03C0FD001
10300C730
CD3000300
11C041140
330053000
4C0D0370C
0C0555041
DF0013334
03F0C4C3C
C40403000
00C0010C0
77300D0C7
414440C03
310340403
434307C01
013100F33
0730343C3
003543000
CD31C0F53
03CC0401C
1343444C0
444113005
44C104441
5C0030300
040D31010
14D00FC00
303430D31
0744C4000
3C05F0305
C0330003C
034DC01F3
01010010C
000000C01
D00F43C10
405F000D0
0F1033050
410400C04
00FD01050
C10400100
37C044C14
C071F0701
304410C0D
1000CC040
451003571
1140D0041
0040F040C
554301005
D7D300C17
000400C3D
FC000CF30
40F7C1F71
310C0101C
03015C070
D04753040
400030CD5
34403001D
F10430000
0D44C4110
000001057
530CF4030
700331344
50C00000C
0030D0470
413CC301F
CF57C303C
C3C100011
C00C31300
5003C4D1C
000000043
4C0000044
003004000
040353443
1DCC040C4
1C300300C
000307F03
D350001C0
00D500370
14150C003
C441FF305
C10D55440
115CC3003
0441CC700
0C10D0100
5F4010111
04C100117
D00411134
4504CF000
41100C040
0D11CC01C
404000004
070CC0C05
C0040C704
3CC0C3C07
04C030000
C3C043413
D1F30F704
0430000FD
353C710C7
003CC4070
004C40C03
C10C0434F
0C00C4351
05013300C
5D4310300
4007C0103
0C0701013
303D34040
000400C0C
0040C001D
01000003D
4100C4004
C0CC07054
500C10C35
7F3430040
C13000371
000000030
370DF0073
000034003
000350440
0001C3037
3430C3030
14343104C
C0C35CC75
1F40C0010
CC10F007C
14C0C1303
CD500103F
00101D40F
340050DD3
1F3010410
340070100
C510FC00C
100514034
00C010C03
010D1C0D1
CD0C004CC
40401C100
450400300
70C1003D1
C07003000
140500C07
C7C110D74
470110003
030D4C000
4F4C1000F
05403D010
11041C405
11134C0C0
043313001
0DC000040
4030333C4
D0D544304
C00F40144
111D3CD07
334700400
31C1CD030
500040045
7D0013030
17FCCC340
50C10C40C
355CD3C41
C0C1341CD
000CF1003
151141113
400C140C1
001000003
001045014
001D0313F
503C0C413
300C4041F
34CC04040
05104C000
03034FC05
040003C04
100001000
00003401C
1CF001000
4C1330300
003000341
4D0710C47
10340C140
331410001
0C0400401
CD1051014
0F3041030
44F3117F4
000730CC0
5C0050CCC
15D003300
40F30400D
0C005F040
0100C5314
005150C40
444C40CD5
707470317
301030007
304D0033C
004CCC400
C00003104
101D05003
C001005D7
30440001C
3CD000343
0140001D0
004310001
C170C4111
711010443
4C1040571
1CC341140
C04100033
050000C00
001300310
3C00D0011
3130C0CC1
10740331F
1F1C43300
13450F050
1D0CF0C00
004000CC0
0035C1100
11C004CC0
004000D3C
0C01001C1
000CD0040
0DC70C014
C0351C30C
114103D31
DC0043074
FCC4D1000
C0C3007F0
41C1143F1
0FD351400
01000F070
C34004000
C51033FC5
1001CDD00
1430003C4
40500C704
34704044C
007371530
40FC10C0C
CCC010C15
13D441011
0CF400001
D530D0004
40100030D
005031141
30D3314D7
003704010
340C0C7C0
0C0F00734
00030CD00
1D3F0573D
10073CD3C
011034C04
131000035
C5C100030
0010431C0
540405304
0F0130004
CC0C0C30C
C40300040
01CC00C00
100F34013
1C10CCC35
01C530030
0CD00C770
133D0303C
000100CC4
300171D00
100040010
CF0300433
4D44344D0
CF04033C3
340400400
C03C01107
0343D1C31
00015CC01
31C110040
1003C3334
4310333F1
C7D000C4F
301F0C40C
0C403C071
300300000
F50F4C411
CC0FC7013
00444101F
004744D01
13C000C00
400014100
003031415
D0110C100
534CC0D04
C440CC040
440D14400
000C0144C
C11013D35
40037C000
4001315C1
050F5073F
0003030C4
304705004
3003C0D07
710CC1551
44DC44C13
C0F010170
0314004F3
501040F01
00000C004
CC0131030
C510005DC

