040D4300C
C101D3400
3D431C400
0010704F0
3CD101010
0405C0033
0000014C0
100344100
0C0074134
0C3004003
D0030C051
041CCC003
C04CF3333
13333F400
100F04040
D11540015
130500301
010710347
44C3C3C0C
CF1144700
107431C44
0C1C33434
0CC010043
00FF314F5
D31C00504
C33300C3C
0C0C0041F
001003140
40D150000
344C000F7
7100143C0
414003000
C4F055500
333033C53
00000F104
00C1C0D17
301010010
0113CC310
C1C030C50
170D0017F
0CC1C3307
10F0C004F
CD3CCF007
1CC031001
3010440C1
00C030000
00C70304C
415040100
40C053C10
D5545DF10
C04330C03
100401300
CC00C0050
013017500
414703041
034403C0C
1C5F74101
C04001310
445010F0F
331400047
17431CD03
0C00404F0
101C041FC
40F0C0000
0C3F10040
043317400
470310041
1C1000040
C01400C14
034C100FC
00C000000
00C00C15C
000001004
00340D3C0
400011010
0D0000101
C44011030
503770340
D3D5C104C
104C0C43F
0010D1C00
7004100F0
0F7004F33
D07F01D3D
0F0500C0F
000FD37C0
0017CC430
0031C103F
04330CD00
F0074C030
CC303C100
304333D04
D31434100
4D4704D5C
144731004
1300001C0
0410C73C4
CD47101C5
103143703
CDC15010C
300710D30
033FF073C
330C040CC
4100400C0
D4C530407
0C4010551
003133001
4000450D3
000C00013
1141CC100
01C37700C
00C4C0C10
43013404C
003710C00
0CC000100
0030C5C00
40300D035
0C00C3F00
01001CF00
110115014
1050D5F5C
5C011CF43
40373141C
003C4D400
051D44CF0
CCC531403
4D553C073
03003D0C5
D5334C0DC
3434C1CD0
000000D70
43CFCC743
010300530
14C0CC034
300310000
CCC44010C
F0174C000
50000744C
317F013D3
00F00CD0C
454CD4010
003D10443
1441034D0
10343C000
100031100
040705313
C00000110
4C0F100CC
0030044C3
CC031100C
004003314
130077733
C31033400
00070C030
55C010704
145000010
1CC031040
070030CC4
D30340403
0041430C0
0C3500015
00C50C0C0
53003D035
01C00C000
11010C30C
40F10CC14
100C00D00
005140170
073110400
4041C0000
003000407
C00703C43
F01410140
0CCDC301F
C0030031F
3C400044D
30C103D40
000031500
344000045
704F01353
034070014
01144340D
0003C0CC4
003101003
0050D071D
FC1303D40
40F000D14
0C0000001
7C3001131
010000C04
01540FC3F
104CC0D04
11D0501C3
C00040000
34D500411
010044140
C3CF34045
CC00F705C
030F00004
C1C00000C
311F50401
34000C30D
0D1030004
110400300
035010FC0
400100777
54C001014
C0000034C
030740070
34C430433
C0051CC0F
300C15700
0C1CD13C0
00315C00C
4C3340CCC
C0C000F00
0C400F4D0
040D00030
001455C34
03C4D7DC1
41405C003
7711514CC
033C45DC0
337C7003C
400007040
C04D10D40
030D03000
0F40F0030
70001014D
0051C14C0
401110C50
01CC007C3
000030C03
0C0D00000
010470C04
00C3001CC
704315014
0110040C0
C044C3030
000403000
43C4430C0
CC0CC0400
4003F50C0
31C10C430
CC0F04405
303304033
01704003D
411003405
000004030
03C3FCC03
00044C04C
3003744D0
DC0101111
0F00330C3
417000444
F10010030
C103F1410
340070101
330000CC3
0DC1C00F7
003300D50
C30430134
3000010C3
05513C001
5C4300000
033003CD1
0C4CD4743
0003C300C
14C1CC04D
F1540CD01
100C03013
310CD5141
4000005CC
0F0D00D03
004031400
0C0C01C15
01000744C
CDC000410
C43C0C101
400C500D0
1CC043000
3501C0001
CC401000C
000D43100
0C01C3C05
43005C343
501103300
003001C45
101330010
00170C4C0
34C0401C0
0000C110F
00C000003
34C3711C0
0040D1001
D1C003137
070111C00
40001035C
0031501D1
1CC430413
1C3333304
430F0C130
C01004004
130403D1C
1000D3000
D1F0015D0
0FC307000
700001430
0F1130330
100D3D370
FD003D115
5033441F0
00C010140
01303FC10
1C000CC00
040040707
004033131
004304440
40C04C003
0570CC354
0503F5C3D
004003340
000047000
511400013
74144030F
0C4303000
D04F0030C
005000C34
C34D0010F
30407315C
13D504C40
000F0100C
3CC4CC1F0
3D03040D4
03C010434
004C40000
00F1C34C0
34C100013
000001141
0CC010CC0
73F0034CC
001004FD0
004300500
3037100CC
3F0140703
401340D3D
041C105C0
C00004004
01C400C70
41C011111
1D1300535
C07C00310
71C0005C0
035403C70
3D014C000
03040000D
701440100
D04140053
03C5C0CCC
03D00533D
000430301
000C13C00
031C40350
C5C301413
004C01C50
400330310
0400C15C4
0CC110403
10D003010
C3013050D
13C330C50
01D1FC310
0D0700CC5
00CD04100
101300030
43010C010
40D0440C1
4D3100110
01040C130
0105FF0C0
05C401700
C7073C1C0
0C33010C0
404344074
F00130C0F
010540014
3014107C0
0131DF3DC
01C131FF0
3D00D0CC0
4C44C031C
05C0104F7
4C31D4C04
C0501401D
1150000C7
C40010D40
011310050
D0C4D0040
300FC30C1
0407374C1
00C034DC0
01C054CDC
F100D35D0
C10003D03
CFC100F30
04C040C00
C3FC0000F
0D011D500
5015100D1
140033DF0
3C14CFD04
034C4F030
CC110D030
010140100
0717FD740
1140430F4
C53300000
D00FCDCC3
1C4CF0D40
001CCF040
104100730
15350001D
0CC0C410C
733DF0D01
4441D0013
00041401C
000000C0C
F34011500
14043314D
440C40110
41D7CF000
000015571
0C13054F0
C31000CC3
000433014
00300C1F0
000001000
530005504
00314007F
0C030000C
1C0014040
F50410C01
00CFC03C0
40014404C
34051000F
3FC704001
01C03C000
C0003C700
1030D0400
CCCC010D1
40040D140
0001CC003
C03101001
00301140D
0001350C7
054D40070
043040110
0C010043D
00FF050D0
003003043
CF7C30C00
1F0C03017
3040404C5
010040104
C04000000
00030100D
33D10D041
0F33C101C
C040103C3
01333015C
0004105C0
43070D1C0
53C041301
300C411D0
0C4703001
0D0040170
003CCC401
01000503F
31D10DC44
13D3010D5
5CD004400
031C3041C
710440C07
1100D1D03
131C003C7
031330C40
0103C7F00
01000C4CF
CD4304FC0
0001C4101
C04400CC0
0C00F300D
340C7F3C3
1033005D0
03C000500
0C1030C10
300400313
47CC04C03
015C715C4
100C00040
070010451
1C4500100
131C100C1
700D0C1C0
CC5504034
4033040C0
41C030100
33D03C7D0
3041C0034
05C0000C3
0034104D4
10411C017

