000400100
440131000
30C0000CD
00004C50C
DFC00F03C
F40040C14
0C0034304
11100001C
01300455C
40100F034
001C145FD
0C1000004
000DC4401
C43303401
4DC300030
4071C3513
0300CC100
0300C0410
44C00F304
FF000C010
004000C00
C41D00103
0F0000000
1C3011750
1DC1431D3
3040CC0CC
000331000
C0C050070
014F5C3D1
40C0C0400
0440074F3
1C00131C0
00C340100
C4300F000
4C0313340
030D0C3F0
7FD33000C
30501C000
301000F01
05550D10C
C35331C13
F0F3011CF
C30410014
03C044C04
0C14DCD03
410400044
004550007
030330000
DC4D3CD34
05337104C
0C5311147
40470C035
1703C0F05
054CC4700
CCC030034
11007034C
CC1054D00
141000477
335004400
045001011
0515C05F0
30FD75010
44033C030
000C07031
001C40D04
7C74151D3
14011C430
503313100
0C440C100
0C7544301
FC0D1C5D1
10030C40D
440014010
330101354
F0754501C
710470750
F30050130
D040C430C
434077340
304140C33
103334C00
003044404
000031CD5
40DCF0C51
0C5443044
1C4CF401C
0010C0410
F0FF0C034
0300DCD00
5D000CC14
4C400CD34
113004055
41D001D14
3CCC1C010
0003FD50C
1C4C00050
CC10C1000
0D43011D0
1300C0441
700F47740
434107500
730011000
071C00000
030C0C100
D000C3030
0070150D0
0CDC000CD
1401003CC
C3C044434
F00410000
5710104C0
CC4F0C110
D33C43D04
4F0713073
1340310F0
110043004
F33410010
4100C100D
03150C11C
503000C40
00F4D1300
D00FF0103
CF4D10001
00C003000
4F113CC01
40C0D0304
003030545
0000000D4
001C05030
C30040343
043001311
41314141C
13FD11C00
040C345CC
00D403404
0003C00F5
130F01470
4D0001047
5CC4CC501
0C04F4340
3F404CD74
F04430105
005304404
040F1C301
C531C0440
00FF30005
D310C5000
C31347034
0374D1300
D0DC5D010
017304004
0301103C1
F0001D000
4DC303C00
070C00070
00C400310
C50D175C0
DFC30010C
414130040
0D0171044
340334C51
40C00D710
0FF000033
CD4334001
004314340
007050C03
F03470400
511CC0030
30000F30C
400010001
0340400F0
01370C040
C050034F4
00D030D04
10F050C00
C0014C004
4005F4000
1CD3114D0
0C05C3443
D0035C111
03054CCC7
040001000
00DC441C3
C0040000C
3C30504DC
4C0301C40
00C314C0F
44D31014C
0F7050400
115004504
03F004030
C430C3733
F00710030
043400011
3C0307107
003004311
000040D1C
01710F334
01004C044
030400435
00C140C04
34103101C
44404FF3C
0400C0044
304403C34
03140F3C0
F03005311
CCF33C000
FC3150033
034003401
33000CC01
10071C400
410000150
01CC510C1
713000540
4C030CD00
50374D3C0
0035CC413
4D1040100
C01430001
07F43C403
3107C4410
0100100C3
11431C334
43C4301D4
1CCF0C044
C0004100F
300C30734
050403050
4007503C3
015C000D0
4500C1C10
130300000
C1030D001
430C000D0
0001D0347
05C303D3C
300000010
400000140
03003C040
0F1C07444
30403300C
F30404414
3D0341010
3DC050C17
C00000C03
141103331
540DD040C
3040C0100
14C5CD134
443030DDC
134440070
00C731001
C1110C430
40140C430
50C1D0400
750FCC170
11C003010
CC1C14CC1
00C07330F
000303C03
011000014
C7C340130
411D15D03
041145030
10C00403C
013533040
3C3DF0F30
75040C30C
304433C40
0C00F30C1
040310D0C
4C4534000
C37D01707
03D104004
3C4130070
040F0CC0C
00D100F0D
1470C0150
1F03F45D0
C400C0710
F40D0051C
0105053C0
0CC000450
00100441C
3C4100314
0D3140001
440103037
CD05D04C0
0C753D43C
44510D001
4000C5C00
D0C5C0C00
10FFDC4C0
010304004
0C1303005
303100705
7C3301500
1500C000C
0007F0C70
400403C0D
437100501
C0DC01C10
000401400
F3C704040
C0C00003D
1C01401CC
11050C000
0C0403440
053310040
303000D44
040000D00
1435070C4
C03050004
3C0004C00
D00C4C000
000014001
33C141033
30C70C001
403454001
511110D50
007401CC4
0037CC000
170004743
300C4C000
CF0010C04
3C0F0014D
03C030000
F3C4D4110
300003100
000D33051
04C00DF44
100001034
C113D7100
1017C0414
43017403C
030400140
000F01143
31F001CC3
F150C0CDF
01C0C00C5
03500050C
0F503047F
DC00F0C00
00003CC44
00310C040
004C31400
0041C4C01
3C40015C3
054F00F10
707005D31
430404D0D
CC0C30001
004700000
3C14000C0
070C40504
50DD00004
33C411030
30101C004
030713330
00305347F
0C7D00C00
4C1C14D00
30CF001C1
D3D011314
41DC03507
0030013D0
01C033034
40C0CF340
00CF03403
007313030
5104D3004
00C73400F
0F1035001
4104303D1
17F110443
00C4143C1
03C40013C
DD10410C0
13DC041C0
000C00C05
0C0100CF4
44014C0D0
0C0C00410
435F7040F
331533411
0C4300405
101C40C41
000310704
0C3000010
FF3D30543
103000110
3C13C330D
DC530F00F
0050CFC01
40040C000
10C00C033
13CCD3301
0F4D4D00D
C40F1443C
04C440400
0715CD50C
04C030CF5
0C0041030
4034000C1
00030F330
0145050C1
100F13CC0
7C3114400
C00100C00
00304CDCD
000C40411
0C103D03D
0104DC01D
00010154C
000340051
771C13330
455C40C10
F43000F11
47C041034
C0000F113
3C4F00401
C47000000
0C007F0F3
103D50C05
43070100C
040014001
010041C41
10C0407C1
04500C403
F051D3005
0001405CC
07C343100
4407040C1
C1004C10D
143D0C0C3
0C0045003
4F3330003
001714000
101C41D0D
4F005C113
034004510
3000C0305
100033043
174317007
30001D00C
01C0CC0C3
03C030C00
00410100C
C10D0C004
0000400C3
003CFF0DC
311301300
54C3C0310
40F00F000
301700003
C1DC00330
740C1100D
750C703C7
0040C5D04
D0000C000
0004040D4
40C70111F
0000C3041
01004047D
001000003
441050000
DC7074030
450410F30
4417C0CFC
10C00C440
C3170F40C
500C404C1
000C0C434
00CF70404
000700040
0D00C40C0
000011133
0017301C0
4C0004040
C4150000F
0F4353030
30C430040
F10300500
F3D300034
C00C03310
4DC4F4000
000577450
040430007
000433003
C0030C405
7014FC307
4013311C0
704030515
441C303F0
000010000
010FD000D
C04105015
54D00C013
041CC4341
01D0C4434
40C0C4500
0010C0D40
040435400
3014FC40C
C30040507
00015D000
404400003
300101370
13011300F
000507C34
F0101F051

