3144
D7F0
0CC0
0030
1C00
D455
4C43
3141
C033
04CC
0C35
0F01
4400
0C00
D155
0704
0400
3000
0CFC
3035
C700
5C04
0CC5
0504
D151
0000
DCC0
0001
F310
0014
500D
C044
0370
31CC
CC00
5C00
1C10
5413
000C
33D4
00F0
3030
C100
444C
314F
0100
3C0F
7310
000D
1000
0000
4000
0004
CC04
0301
0C40
04CC
3044
CC03
7000
D4D1
C007
D00C
1330
0130
1000
00F1
0F13
C040
3140
1430
1030
1C0C
303C
0C31
30D0
0CC1
0400
4400
3C07
13C0
0110
00C0
14CC
F1F1
0047
3000
000D
C000
050F
0050
1001
0CC0
510C
1001
0401
C7FC
31C1
0440
C103
1347
0F0D
C05C
3040
0010
0C00
3330
3140
3C00
C030
7300
0043
0104
00D1
C040
030C
F140
4000
0000
C040
114D
0305
4030
3343
4000
34C0
0D00
4010
4C03
0100
1D00
4C4D
4100
1043
1334
330C
0100
433F
0100
0040
0C00
011C
CC00
5300
1C00
3FCD
1FDD
0C03
1000
0010
10C0
0CD0
1030
1300
003C
0010
C1C1
1013
0340
1C57
0104
0C00
001C
DCC1
443C
D5C0
1174
0501
000C
7331
0433
07C3
1705
430D
C03F
0011
3C30
000C
0F40
0C00
0C50
30C3
7C10
3353
300C
010F
C445
0404
3C30
0040
0001
4114
150C
1DCD
0100
04CC
000C
0F00
F04C
C330
01D1
110D
1110
0331
0C01
1403
04CC
05C0
707C
0007
0000
0030
C30C
0000
C0CF
0030
3C3C
1041
0507
1000
34CD
00C1
0C30
0441
1010
CC0F
C1F3
053D
0105
C000
00F4
0451
0C40
05FC
10C0
3030
C413
130F
F0F1
4C03
00F0
4033
0050
1000
CC40
D304
0110
C030
F004
C030
3C00
0330
00C0
00F0
0000
C4C4
0440
4114
33CC
5000
1110
7005
C300
0C00
400C
3004
4300
0030
4030
310C
1134
4000
03FF
3314
0000
0410
0000
4C00
404C
0103
1000
030C
403D
F010
4303
0100
4033
4F0D
3C07
041C
5304
01F3
C0C3
0C00
3410
3FFF
0C0C
3014
0040
0D05
0D01
00D1
0400
4000
3040
0C04
07C0
C13C
0301
0410
0013
35F3
4303
14F0
F734
F041
4000
4031
0403
0400
3004
44C3
0507
4370
400C
0C00
4131
1731
1DC0
04CF
00CC
F003
41F0
4014
010C
C313
0004
0D01
431C
3010
0CFC
1035
1F00
C30C
D500
0CC0
30F0
3000
F01C
07F0
0714
4040
CC7C
0350
3C03
00C3
CF00
0100
0400
C3C0
70F3
D0D5
0440
1CC0
743C
10D0
1100
0000
4003
3300
D0C0
3100
43D0
0300
0010
3330
0D01
0041
1DDD
0000
0300
304C
07CF
3003
4034
03F0
F030
0CD0
711C
40C1
41F4
1040
011C
04C0
44C0
4143
107C
041C
3CC0
30C0
0F30
3101
1010
C154
1040
031C
04D7
0430
C004
1034
3330
0305
0003
C300
010C
0F03
D004
0040
0340
5430
C33C
0134
0440
0513
04C0
C040
0000
050C
C140
C3F0
3341
0C04
7CC3
C010
1001
03C0
00C0
1000
3000
0003
4030
03CC
5C0C
0404
0000
00C0
4401
0101
F157
4FD0
C301
11C0
40C1
010C
D000
003C
1001
7330
3000
F000
0F70
0000
3333
C510
104D
C0F0
0014
4004
5140
03FD
0000
C004
3C01
011C
0140
4071
103F
CC44
0C03
3C15
0400
0D0D
1CD0
0CC3
0033
0300
0303
300C
170C
C10D
0010
1C0C
0001
0473
00C1
10C0
40F1
D004
0000
500C
C0D0
C043
DC0C
10F3
D005
4033
3050
F0C0
3300
1010
0003
0077
3041
C031
C005
CF0D
0103
004F
C07C
C033
0010
D040
4C00
0C03
011D
14C7
0177
0101
5300
40D0
3033
4331
5000
1001
40C0
0C00
01CC
000F
104C
C517
C430
4000
D0C0
1330
3430
0FD0
041F
0450
CFF0
0001
0300
7FCF
D307
4403
7400
113F
C010
5004
0F00
0014
1000
00C4
100D
1010
C300
3FC0
1330
04C0
7001
C1D0
C00C
1000
4144
F001
0001
4445
057C
0305
3C0D
0C01
030C
00CF
044F
1C50
30D0
0500
00FC
010F
1301
100D
0C00
0D00
4000
00D3
1001
0401
400F
1000
0F31
7054
403D
4030
CC50
4CF3
CCC4
C400
C0C4
D004
C000
F001
C0D0
40C3
0300
0010
F0C1
4340
1300
C474
1000
10C0
010C
1401
0D44
1031
C401
01C1
0007
D351
40CC
0000
03CF
4403
0D00
03D0
1C07
C740
0013
0040
3000
0430
7000
C7C0
3004
C000
0000
7001
30D3
1CCC
01C0
C0C4
000C
5037
F00C
1410
0D10
0000
C071
0030
1C1D
0110
0010
0143
0400
C040
10C1
0005
1C40
105C
04D0
100D
0000
0540
030C
0030
C054
310C
704C
700F
7131
4040
3034
0010
1000
3100
1C01
0301
0FF0
FF11
44D0
4110
DC1C
343C
0C40
0000
4100
000C
C403
1130
04C0
0710
103C
C043
0C50
1C03
0400
04C0
C333
0CC0
0333
0C30
3300
0403
0400
0C1C
14CC
C005
C140
0F31
C000
0C30
1015
417F
C345
C070
10C7
3C40
FF17
013C
3041
0044
0041
3000
4001
0074
0440
0C04
1CF4
C051
050C
CC00
1450
C4C0
0140
00C0
1400
50C4
0000
003C
03C0
0CC0
707D
75C0
0000
000C
0C40
CC11
3430
4F34
073C
4DD1
C130
0FC0
413F
FC4F
3C07
1001
00C0
F000
0004
150C
0405
0003
C0C1
0003
3014
003C
4750
400C
C40C
F000
CC00
0000
1C01
D011
C440
0CC3
7100
5000
1000
0001
3404
0444
0103
0CD0
403C
1710
0500
D5C0
5C00
000D
7000
7CFC
00F0
0430
C015
0140
C300
0041
4C01
0001
431D
11C1
04C0
1400
3030
0443
00F0
0334
C157
7CC0
004C
00C5
0300
4001
0704
013C
01DC
4030
5C30
00C5
3010
0C34
4344
0403
D340
C000
0173
0000
40F1
1111
1000
0014
7000
0050
0F30
3C34
0C7C
1000
0000
1001
3003
C00C
0007
F30C
0000
C033
500C
0010
17C0
00F3
0400
0303
301C
4C00
3003
0404
F001
0F30
C001
3000
10CF
3400
0051
3400
C01D
000F
700C
D033
0110
DC30
0030
3F41
3003
0F0C
30C5
404D
C07C
0070
CC00
1D0C
3334
0004
400C
05FF
0030
0101
C104
400F
1050
3C54
1300
045C
40D4
0000
0011
CC44
111F
3530
3033
C0D0
CC07
4700
D3F0
5474
30C3
4544
C110
3C00
3000
D0F3
0030
00CF
0404
C730
0304
C040
0041
00C0
31CC
0C40
D00F
0500
C40C
3FF1
74D0
0101
000C
C0C1
0D34
305C
0004
7050
0C00
3151
C3C7
03C3
4001
4010
CC07
5011
D440
0117
0017
0400
300C
D001
0C30
C311
4071
34C0
D041
4007
1C00
0037
31D3
1340
031D
1C03
C140
0010
FFC0
0013
FC04
1C00
30D0
CC40
0004
033C
0137
03C0
037C
0DC0
0FC3
1105
7C00
00F0
CD34
D41F
040C
1043
05C0
7050
300C
0014
51C4
0300
00C5
004C
1000
4000
0C00
1001
0011
0004
0C40
000F
1104
10F4
03C0
7040
100C
0031
0400
0111
5033
C373
0040
0141
000C
75CC
410C
0114
0003
4000
C104
0107
1403
0000
110C
00C5
050F
5C45
43CC
1D00
C101
01F3
0500
43CD
C001
03F0
CC00
7001
0301
0410
1C00
0007
30CC
CCC1
0C10
4C01
400F
030C
C31C
4F50
5045
C47C
0000
0400
4440
0115
400C
01CC
13C0
0403
35C0
134C
C043
0340
0041
F3C1
C131
005C
0C40
0C00
0573
0C00
1300
3000
33D1
3510
0004
0010
0444
D000
0001
1331
CF10
400C
0500
0044
0F00
0C10
4CC4
3000
0043
0030
0F05
0311
F000
0043
D004
0000
4010
0000
0F00
C700
3031
0501
3113
4C00
01C0
1030
01CC
340C
4143
C010
4530
0005
5CF0
0000
0043
0D00
04D0
0C00
4300
040C
C0C7
3700
0330
4130
0710
1CF3
0000
0C43
0054
0004
0107
0031
CCF1
4070
0303
3C00
0471
5CC3
D401
5C10
0410
0700
3000
00D0
0001
3010
07D0
404F
0357
3001
1C33
3070
0300
0500
10CC
0040
0113
3440
C004
0140
0410
7000
C333
0141
7407
3C43
0C47
3070
0004
40CC
CD00
0414
0C01
1444
04CF
4CCD
0050
4003
0074
C003
1C03
0034
3030
0010
F003
0003
C050
4FCC
0000
0003
47C0
C103
11CC
1004
3C41
C003
040C
31F3
040D
10C4
4C11
0D03
0404
00C0
C400
7003
3070
4704
4410
FC1C
0003
7010
0CC0
0C00
0030
0300
5104
C031
0301
5170
0447
D0C4
0000
5041
04C0
00FC
5040
C000
F0CC
3031
1C40
3730
001C
7003
D000
5C00
0004
3500
0400
1110
1403
0001
0003
0407
C403
004D
4030
0C10
0010
0FCC
14F3
3304
400F
0151
C300
F004
0171
0011
0103
30DC
000C
301F
0304
0D43
4031
0347
C003
FCC0
0000
4030
113D
5C04
10D1
0400
4010
C003
1304
0C00
CC01
C1C5
0304
FC00
0310
C41C
404C
F303
0105
030C
3141
C444
4C3C
FDC1
0730
0004
040C
C000
03C1
4030
3CC0
141C
C700
11C7
3C00
00CD
CC11
0C30
D001
0C00
41D1
1011
0400
0400
0FFC
4000
43C4
4100
C010
30F3
0C33
0330
01C4
0010
C000
000C
C540
7C14
43D0
4100
0404
3400
0304
0C00
1403
403C
3F0C
CF00
0C00
0304
0503
F440
4C00
0CC3
1440
0C43
1300
0300
4004
0D04
0F5D
000D
0000
00C0
0010
0700
104F
3C07
5C00
F001
C043
00C1
0400
0404
3403
0001
031C
4000
114F
40D0
0C3C
4700
400C
3F00
CDC4
0000
300C
000F
410D
0000
43D1
FC15
0013
007C
C30C
0140
0414
C0C7
00C0
1500
3407
4041
403F
0101
4030
C330
0C10
4413
5040
0034
5C00
5004
0034
011D
0010
3300
1D11
0010
7C00
0310
0304
430C
CC71
3033
0300
3001
0C10
1374
50F0
403C
1340
0C30
3330
CDD0
0C40
D400
040F
0404
43C0
0C00
7004
F1C0
1074
34D0
3304
0440
000C
5F14
F103
1351
C004
7110
F030
0F04
4C43
C000
C7C3
003C
003C
F03C
30C0
0D4C
C50C
00FC
5034
F031
3CC3
100C
3303
1040
0401
3104
4D50
C000
0045
0775
0014
F400
0CCC
0703
C04C
4100
F00C
D0F3
0340
010C
C703
0414
1300
7705
0F10
0007
5000
0C3C
0000
3003
1034
30F5
1C00
0011
CC04
4007
4000
0013
000F
0300
1110
41C0
7000
3C07
04C4
C000
1CC0
C443
0333
0C04
4C01
C300
4401
0040
034C
0C0C
4040
4CC4
0303
0000
1431
034C
C003
0010
0000
CC03
3004
4013
D130
11C3
3D01
4000
0100
3004
100C
0070
0F00
CD00
010D
01F7
1044
C401
1CD5
0FC0
F0C4
0750
0DF1
4100
0030
0301
0DC0
00F0
0310
4305
1F0F
0050
0310
1340
0174
00F3
F73C
0407
3300
3031
1C41
4400
1100
3037
4C30
F700
0300
3070
0041
DC04
0070
0003
CC00
303F
4104
C440
0130
30DD
0450
F30D
0040
0000
1000
30D4
0003
0700
7434
0130
1341
0C0C
00C1
C4D0
4300
1000
C0F4
001F
041C
D110
0400
0000
3700
0C00
40C0
0300
001C
4003
7403
104C
C001
3304
C040
D00C
0000
0074
C00F
1530
0C7C
C000
0000
0013
0D0C
04D0
4430
3050
04C0
0450
577D
3040
0050
C0CC
000C
C04C
0470
40DD
0031
C015
77F4
0C40
0C13
4C00
040C
11C3
0300
1001
3C05
44C1
0C04
4043
41C4
4073
1143
4001
04C4
0040
C040
C030
3000
0700
C40C
00C1
CCC1
0400
0040
0000
3300
F000
401C
C000
0040
5F41
0030
C013
0410
C130
00C3
0007
C100
C000
01C0
4C00
000F
4400
40C3
0C00
D003
0C40
01C0
0001
4500
0300
3C01
0400
0C70
43C1
C01C
F000
70D0
001C
1304
33F0
1307
10CC
C000
45C0
1110
0141
3004
1100
0014
C433
03C7
00C3
CF0F
00F0
0040
00D3
33C0
3DC4
4000
0443
0131
4F01
C000
3001
07D5
0103
C41D
0740
0003
0044
C10C
0FFC
0053
5551
0103
1000
DF00
0344
D41C
0000
03CD
0014
FD03
0340
4330
7041
144D
3400
C000
0503
0CC0
10F4
D5C5
4000
0C00
0010
34D4
000C
0000
7004
00C0
C040
4303
151C
0C3D
3C03
0003
0C0C
333F
0CC3
D014
100C
0000
3450
3001
3400
015C
4340
7C01
0004
C000
4000
4030
C573
C03C
0401
0301
0000
400F
0000
3100
4C10
0154
100D
4117
100C
4370
C050
D00C
1040
337D
C0D1
5440
0544
00CC
30F4
3040
40CD
0100
0300
3F01
4040
C400
01DC
0030
04CC
0030
1333
3000
4FC0
0D0D
1077
5D00
00C0
CC00
C3D0
D0D1
0004
C300
1033
4DC0
00C0
010C
1C5C
01C0
0404
0370
1550
1701
7000
0CD1
1504
3174
0034
0C01
03C3
0040
0C01
0000
0513
D010
0105
C040
7000
000C
0CC0
0C10
D304
0143
C004
1015
0007
1000
0C40
4000
7000
000C
0000
D103
4553
0404
3014
4C03
7C00
F410
0C11
4010
14C0
30D3
0034
C1F0
FC1C
C0C0
31C0
4301
11C0
3507
000F
0004
704D
0415
350C
C407
0444
43F0
0311
00CC
0140
3350
D50C
D140
0340
0017
0000
44C3
5100
141C
4000
C04D
3333
0C00
4700
0C01
003F
C013
1D00
3C5D
0000
1303
C0C0
0011
DC04
30C1
4C30
731C
0000
410C
01C3
3504
10D3
4100
C454
031F
0F01
FC1C
3C00
0000
10C7
1D00
0004
1000
700C
0001
4000
100C
C03C
0C00
47CC
C07C
001C
4500
00CF
470D
1101
C40C
00C0
0000
0041
0C03
1F10
10D0
3004
0C70
0101
CF04
44C0
034C
0330
5473
0031
000C
04D0
4010
FF10
0704
0000
D000
3CC1
7003
00CC
010D
CDCF
347C
F04F
3033
C043
00C1
3344
10F0
0C75
3400
10C3
4F05
0313
0450
0003
0004
0001
4100
1000
3500
5F0F
0731
D003
7403
C030
00CF
01C0
3C11
33C0
0414
C304
40C0
00C0
03C1
5000
03CC
104C
CCC3
0357
4170
0100
00FD
4030
30C0
0CC0
057F
0034
1143
4003
0F10
10C5
4410
0410
014D
5443
5400
0030
0050
C111
0100
4000
3430
307C
F0C0
01C0
0371
0001
1C00
3000
40C0
0004
0000
4030
0100
0100
0033
0C50
0000
0C1C
45C0
1000
0101
3010
3303
3400
33C3
CCFC
01CD
000C
3530
0000
0101
13FD
C031
4070
454C
D0D0
0004
41C3
D041
303C
7300
4033
C4D0
1FC0
4107
D310
0034
D0D1
3074
440F
5C0D
3CF0
0430
3035
0110
F5C0
0004
745D
5107
34FC
0F30
3033
C10C
C100
3FF0
1C00
0030
1041
C041
030C
DC11
F30F
0017
F101
034C
1447
3000
010C
413D
030C
FC04
0CD1
3010
4500
3304
0014
0131
4475
0030
30F4
4041
DC13
5700
C300
3030
000C
0C10
0004
10DC
C0F0
100C
00C1
F403
4CC7
3C01
0CC0
0C04
5D00
D314
0313
010C
47F0
FC31
0004
0000
C700
4DCC
1C3D
540C
D510
0C3D
0041
4103
31C3
0000
100D
0F01
1303
000C
FC30
0101
3C00
C30D
0130
0000
1344
F001
F043
0000
C03C
1104
7030
1101
1000
1001
0005
0C33
0504
00D0
0030
0040
C41C
05C1
3434
4300
0170
C005
D500
411D
0114
0007
010D
1400
0411
0003
D350
030D
C370
0074
0000
0CCC
330C
D000
0030
030F
0745
4003
0300
D01C
0340
0000
D000
C000
0000
7141
4F0F
100D
1C00
4504
4FD0
4003
0431
50F1
0004
3351
1D3C
D034
3051
00FC
F00C
30C7
4450
F053
1003
C4C0
C0C1
0047
04D0
7000
0FCC
41C0
3440
004C
C750
0041
0F41
C410
17C7
1000
C074
3000
C410
0005
D000
0000
C400
050C
47D3
0731
170C
10C0
0054
340D
F000
0404
C0C3
4000
0C33
F030
1000
1040
314D
0C00
1404
5C10
4000
0D40
4110
0044
D1C4
0CD4
400C
CC11
0013
4000
4003
0370
074D
0040
1C01
4000
7013
0304
1500
4045
0405
C4F5
F044
0C00
C030
7110
140C
7100
4430
0C40
4030
330C
D10C
C000
13C0
500F
4100
704C
0040
1043
4300
0070
0000
331F
1C30
004C
030D
3C70
303C
1C4F
330C
3010
0D53
0003
01C0
0441
3400
0344
0004
0001
1C1D
10C0
0C01
01C0
1C10
0573
0710
D110
3010
0040
00C0
5000
1305
4300
3F03
F703
4C33
350C
F040
0403
0000
10CC
0010
0CC3
0043
0C00
0C0F
CC0C
4C0C
0C41
3770
0300
3100
C045
5104
0041
C047
7000
1C05
113F
01C1
C43C
4040
0414
D040
1144
3C00
4537
4404
0030
D110
1033
5003
C000
5017
0400
0F43
00C1
001C
0433
3730
0100
3001
3040
4010
1404
00F7
3000
C34F
0C30
0001
015C
C000
0001
3010
4101
C430
0F00
00CC
40DC
4440
4D03
0400
0FD0
4303
0301
010D
3DFF
4C03
0040
C104
3130
31C4
0004
C400
0CD4
0CC5
CC50
4030
0040
3010
0040
4030
0334
0733
000C
0030
0000
0000
0031
5544
43C0
0703
0C0C
0540
4041
3000
1510
0CC0
4C30
5004
3704
D110
C700
D00C
0071
C3C0
3400
CF03
CC30
0103
4C0C
0004
013C
C503
C300
4004
C0FD
1000
C000
71D0
1FD0
0043
1300
0040
0C04
CF03
C034
00FC
C410
51C0
0510
0010
030F
0C30
03D1
000C
3010
3000
001C
D170
0000
0CD0
011C
1043
0000
D33F
4040
0400
100F
5C07
1130
0001
1D11
0040
4000
4033
00C7
1D04
CC03
000C
0CCD
007C
7104
0000
003D
1D04
C000
1D34
4144
0300
C031
4030
3000
04C7
3040
7400
D4C3
0101
3440
1103
C0D3
000C
3300
3004
C000
03C3
C300
0404
C400
0F00
0450
070C
C000
0334
0C00
0400
301D
3000
1003
3C30
7000
0000
0000
133C
0C00
4500
4D31
4000
0D10
0001
0D41
0D00
044C
0400
3FC4
3C75
7303
0550
00D0
DC0C
0DC3
3300
5F00
3CFF
C300
0000
3D0C
C01C
4CF0
03C0
5301
03F1
0500
0710
3540
4430
0100
4300
4041
110C
140D
14DC
0DC0
050C
0303
1300
C300
3010
0300
043C
1430
0070
000F
F00C
0070
0300
4033
40C4
4034
3354
000C
350C
0030
0031
1000
0040
43FF
4355
5000
C00D
0010
0043
7033
C300
0043
0C0C
134C
1005
4000
5003
1000
334C
1310
1043
7300
CC45
0D03
100C
34D0
0517
D370
0431
11C0
C013
0007
405F
0031
3030
700C
013D
0104
3100
D000
0341
0D17
C015
1050
F530
7F34
0F10
3511
D300
4C70
C430
0044
0000
0CC7
0305
FC00
3045
3404
40D3
00C0
0030
04C1
3701
4070
0331
14F0
5143
0034
0C01
C01D
000F
0044
F014
0C44
0C1C
C0C3
7403
CC70
51C0
4733
0FCF
1113
0F04
0001
10C3
400C
0145
000F
0014
0330
0CC4
0400
1D03
0730
1050
0154
11C3
F0C4
03CC
54C1
1041
30C3
4013
F400
CC43
1340
3C40
C100
0030
F303
1431
C414
0340
1037
F004
041C
3010
400D
0030
4037
0050
7D04
7300
0100
3310
3044
041C
4FF4
4C44
050D
11CC
0470
10C0
0100
C0D3
0F07
3F00
3001
0040
0343
50C0
0C0D
FF40
0C44
0404
C000
C0CC
0710
40CC
0C00
0500
0404
F300
C100
15C4
4D05
1100
0F04
4C74
4100
10C0
1000
5F10
41C4
3144
40C0
0034
F010
4103
0010
0C1C
0010
D030
4301
4040
0711
4350
1D00
3070
D707
1430
1401
0540
3444
0041
D310
1070
0033
4F0C
C403
30CC
4004
5D04
C14D
0001
400D
00D0
4000
4D00
4100
5130
0000
C103
3400
0CC0
3D00
0D70
C74C
31C5
00F0
0304
0700
3D00
0C04
30D4
0000
3F0C
C405
0300
0443
CC50
7007
C004
D0C1
040C
045C
00C0
0300
3403
0033
5041
1470
3150
400C
C54C
0C05
C441
3040
03FC
4001
1000
5D00
040C
40C0
5030
F503
0504
C5F7
000D
1311
0003
47C0
0544
0000
0003
0504
411C
0D33
1005
0430
01C0
40D0
40C1
0141
C040
0C34
303C
F000
5100
0CC4
0005
0CC0
1530
CCF0
4400
4C07
DF30
0007
D050
3340
F0F7
00C4
0175
0000
00F0
0301
F030
001C
D0F3
0C1C
1001
3303
C0D3
0F10
30D0
0C50
3330
01C0
0044
1731
C1D4
0003
0C40
0000
3010
3111
0004
0105
C000
C31F
4031
4C04
30F0
4010
30C1
0104
04C0
75CF
0001
000C
13F1
0704
4C00
004D
5341
0101
0074
D0C3
7000
0C10
0000
C050
0341
14D1
CC00
CC75
003C
0003
C000
34C0
F003
7040
0000
4CC5
3FC3
5010
0314
4C00
0100
C030
D317
40C1
0005
11CF
D410
3434
4001
3C4C
0074
4C10
0417
0000
0033
1045
040C
CC13
4004
C303
1040
3004
0044
0001
4100
00C0
F440
3040
0004
1340
0030
4100
C00C
C014
0000
4005
057C
0400
3001
4400
0C1F
0D71
3100
400D
4430
00D0
0400
1005
0F40
007C
4455
D3CD
400F
045D
5000
C143
4004
DCFF
3300
401C
5101
3C01
0010
110C
4074
4330
00C3
0010
0037
4C74
3F4C
0131
0300
01F0
4001
C431
0003
4F03
0000
443C
3033
4004
CCC0
10FF
0000
0003
1F05
3001
1140
04CD
0001
0DC4
7000
3003
117D
0300
F003
00FC
04FC
3010
0750
1440
0473
003F
407C
4100
D0F0
4530
000D
C00F
3010
C300
007C
004D
04C0
4CC5
7000
401F
C740
0C00
0314
0003
37C0
4001
4101
3301
1000
C000
5430
3440
0474
1FCC
C170
030D
1001
0010
00CF
4113
104C
041F
0040
043C
40D1
C044
350C
0140
4100
0CCD
1054
FC70
1010
1C04
0C01
410C
0500
3031
0441
0400
0001
504C
0F45
1000
5305
4000
04CC
4003
0100
0D03
0300
503C
00D0
000F
C000
4010
C400
C000
1041
0D00
17C0
0F03
0013
CF10
3170
1330
D3F0
CC34
C300
01C5
4044
03C0
3333
1410
0C01
01C0
1010
4570
000F
0407
0000
3003
0401
3174
0C41
0315
0340
4DF1
0111
3005
050C
100C
0703
C000
00C0
3355
010C
4300
1F43
C3C0
0000
0330
0005
0C33
0100
040F
4040
0001
0C0D
7033
000C
0037
0000
0C03
0000
CC04
0101
30C3
4000
4047
0030
C400
000F
4053
0100
0400
0157
001C
1331
30CD
0145
0003
0035
CC10
1DCC
0000
0300
5000
4300
DC04
510C
0354
3407
0D1C
CC47
71D0
C00C
1F00
1000
0001
1040
30C3
3000
3314
3410
4040
5400
0400
0010
0443
0D30
00D5
C1F1
31D0
1343
7443
C310
0305
3D00
0540
0000
4000
0C40
3C07
0000
0030
0001
0330
00C0
3C03
00CD
3500
0CC0
0034
0130
00C3
0350
0334
0CDC
0000
0300
1401
00C0
1014
3040
4311
10C3
001C
1C03
0110
0013
0010
1101
35FC
4111
CF13
0000
F0C4
0033
C033
3434
C1C0
D0D0
01C0
0043
4400
01D3
0D5C
C045
34C0
1100
3503
0030
F100
1440
3000
10CC
0054
30C5
1F13
0430
0100
003C
00D0
0010
0000
0341
0C0C
03CF
C040
3040
3717
1050
0140
0343
0004
7005
0314
C014
D4C1
340C
0300
3CFF
0C41
1001
0F30
4000
0300
3F04
0C33
DC4F
0330
0040
00C4
C03C
004C
00DC
DC00
0D00
0014
400C
04C0
4300
03CC
0057
0703
0041
001C
1100
071C
4400
0CDC
03FC
0C00
C340
3007
0FC0
013D
41C4
3304
D104
03CC
C110
5007
F000
C400
030C
03C5
0400
3000
04F3
3004
0044
0C00
4001
0D34
0000
C401
7400
411F
D35F
C040
DC04
0053
C004
004C
0701
0030
430C
C310
0100
3340
0000
D40C
4003
F345
4400
4303
1117
4000
0010
0041
030C
C000
7C04
4001
11DF
C010
0013
0110
10D4
00C0
5300
4040
0041
00F3
0F00
410C
4501
0C4C
0313
7C03
5114
104F
4031
1F41
0030
3074
3155
C033
0000
4043
4400
1300
5033
0001
0030
1030
0400
30C0
00F3
0007
4440
0070
0104
1003
10C0
1503
1C0D
4440
0054
0010
401C
0C47
0014
0514
0001
30F1
0330
1303
0440
1001
0050
0370
0DD0
7040
13C0
4730
4340
F010
0135
073D
3F33
3C70
3003
1CD4
4C33
035D
0017
1045
0D04
0104
30D4
4100
0054
7345
1000
C0FD
C0C0
F3D1
753C
FC1D
030C
45C5
0073
1C30
C411
0010
0041
3103
0140
4030
1CC3
3701
4000
4300
104C
04C4
0000
4077
3141
00D4
715C
F010
150C
4414
4133
4C04
300C
F014
00CC
0104
0003
7DC0
0311
F700
CC40
3350
1403
0100
CF03
0000
0300
C101
D030
1110
0401
D030
04DC
0030
5031
141C
0537
C00C
0C14
0C40
0C30
CC30
3F30
4CF1
0510
0040
7C30
430F
01C0
3C50
0C1C
3400
4003
0110
3D34
D0C4
4001
0C11
CF07
4010
4010
4100
D100
7C40
0CF3
4001
0030
505F
1F50
0037
0F04
5530
055C
10C1
4110
C51C
00C1
F403
5304
C403
4133
030C
0C00
4000
1CC1
1130
3000
040C
700C
404C
0107
5133
C440
C330
0750
4C0F
4CC0
C740
3144
0030
0044
403C
4C00
4CF1
C13C
1171
3011
0703
0311
401C
0010
0007
030D
0011
301C
7701
744F
00C0
C0CC
0C10
0031
C000
3051
0004
007D
000C
3430
0141
0334
70F1
4D00
1300
1033
3C03
4C40
4103
C3D0
0C0D
CD30
0701
11DC
1C41
4041
40C0
0035
0C0F
1001
0011
1C13
5100
0041
0C01
70F0
1C00
773C
C00F
0010
C4FD
C070
5D30
3C35
DCC5
05C3
0D01
C303
43C1
0170
0145
0010
0004
0C31
0004
0404
0100
03C0
530C
0100
0C10
D540
104D
C013
0CC4
440C
04F0
0750
1330
D304
1134
0070
1543
0C10
0310
C400
0030
0001
D10C
1170
3530
0313
0013
0300
1737
000F
0400
0134
03D0
CC03
0C00
0400
0FDD
4130
C50C
0003
C101
0003
1130
D1C0
1030
10C7
3310
5014
C03D
0040
15F0
0044
1F0D
D001
F0CD
5051
0C00
104C
100C
00C0
1414
50D0
4400
0030
0103
7000
4C04
1001
C4FC
0550
53F0
0034
400F
300F
0001
7C10
DC0C
F00C
0F00
F0CD
4011
1053
0104
1000
4304
4400
0030
04C4
0000
5330
0000
1C04
CC40
1500
0401
3134
C03C
0404
043F
F30C
4034
0100
0000
C110
0FD0
0110
1304
0000
044C
0001
0031
00C0
1031
0044
4130
0150
0003
00F0
1001
C344
00C0
0014
1434
4070
0070
0110
0DCC
0D03
D03C
4004
700D
0103
1100
45F3
0C03
0F14
00C1
03C0
00F1
1404
1C0C
F043
FC00
DC04
70F0
10C0
10C0
4CC4
5010
1310
0310
00CD
1101
103F
C00C
0070
00F1
003D
0301
4CF0
0400
3000
40C7
300F
4301
C041
1C00
0104
0C30
C040
C041
0303
0410
C541
0C03
C411
300D
3000
7303
3405
0043
0001
00F4
41C4
0F4C
0C00
4441
C000
C054
CC05
0030
0C13
1003
3034
D310
040D
1003
F003
7013
3C30
C300
13C7
0003
C301
4CF4
10C1
C10C
040C
4400
003D
0101
3043
4001
1013
1100
00DC
D0C1
C4C0
4C30
0034
50C4
4014
D415
5103
1030
0700
0107
0300
F301
4401
C510
3CF5
4100
5003
4503
0007
00C0
0070
0000
0330
7000
03CC
0410
1C13
0010
D04C
000C
0F3D
C401
0000
13C4
0040
F703
341C
0133
4001
0000
0100
0030
0051
3450
000C
0011
C037
44C0
700C
D0C0
0070
C103
7013
0044
3004
0010
4304
0FC1
1014
4000
CC70
0003
3C0C
1110
0031
300C
3007
7F00
0011
01CC
C040
3044
014C
0010
1F14
040F
DD00
57C0
C703
C050
0F03
4F03
F303
0014
3070
0141
0114
4010
7104
4017
0D00
0F00
0044
0305
30D0
1003
00D1
1C04
0041
4101
7047
0114
04D0
4C35
0700
F043
050C
3000
1015
4004
CF14
0730
33CD
0343
40D3
3CF3
0003
0300
3131
0001
0510
4010
0001
F100
700C
1CC4
404C
0000
C40D
0000
405C
0404
CF44
01CD
5D30
0454
0133
01D4
044C
0000
1330
0000
0400
050C
050F
0144
0530
0000
C1C0
04C0
1000
3CC0
1107
3FCD
0005
1040
C0C1
333C
0500
00F1
4334
1310
1C03
4CCC
53C0
0001
4304
7CCC
C340
5003
0300
30DC
1000
0000
0000
1074
C30D
C034
0330
5301
0433
DD40
D000
4103
00CF
3070
00C0
DF31
D704
7400
10C1
C40C
0304
4144
4344
410C
CC0C
4300
C50F
1C13
0130
4300
0005
F703
C5D1
4C43
4000
4030
0F03
4000
4CC0
C004
000D
1440
4003
7004
C007
4CCC
4500
F43C
0040
1033
C040
0C01
3C51
1304
50DC
C0C0
430C
0103
3031
0C5F
007D
0500
D0C1
0000
1C00
00D1
7337
C400
0140
34F3
C100
C000
17C7
C401
CC05
C341
1030
1705
4513
F307
CC10
1000
0043
3710
303C
0300
1441
C004
0700
0C30
3405
F057
0C17
1700
1000
31F0
3057
0100
7330
50C3
4304
C057
0010
00F3
1031
34CD
0104
0040
00D0
0110
0744
0C43
31C0
3400
3044
D700
140C
3D10
C3FF
0000
1700
44C0
0C3C
04CC
00C3
CC40
0003
C0C0
0030
05D1
5411
04C0
0114
5000
7000
4000
0CC0
0C40
1CC4
0415
0000
0004
0400
715F
4010
0011
000C
4C04
0030
0033
C0C3
CC0D
1004
0000
0CCD
0100
0001
CFC1
7000
0000
5000
0317
1113
C031
0070
7CF1
4335
0F40
1F0C
3305
0003
0301
0540
C034
C000
CCD4
3504
0110
3C34
03C0
0001
C454
500C
0000
0144
1100
445F
0104
C030
040C
3303
D00C
0001
C030
33CC
00C0
740C
130C
5004
353C
1115
0D04
0030
0C10
0FC3
0003
1C00
00F5
1003
00D3
0030
C457
00C0
103C
3040
0434
13F0
CC31
CCC1
404D
D003
1014
4410
C404
0150
CC00
4C0F
C001
730C
1C00
5000
0410
0C00
0003
FF41
5510
0C00
4310
C071
0D04
7F40
0F30
7001
0C00
F004
3004
04DC
3C30
F1C1
00C3
1104
0340
00C0
3034
0300
4340
3330
C7C0
043C
0007
D001
3C00
0F03
0030
C000
0001
C033
0000
0000
0F07
5570
C400
D030
1D01
1714
4000
3033
0543
0003
4C31
C030
400D
0C14
0010
101C
3410
0014
7CC3
0041
4043
5300
4004
1041
7333
0CC0
0000
50C0
0400
03C0
C03C
070C
DC30
3400
0D10
0000
4510
1000
104C
0F40
1031
0C01
4F00
D450
030C
004C
0040
D400
000D
1C34
0310
7401
0001
4434
3004
0310
005C
3000
50CC
0050
F130
041C
30C4
1310
74CC
4003
0003
C54C
0003
3054
0C34
3000
0340
0001
0310
3000
1103
7000
004D
1000
C300
D0C3
1040
00D0
1300
1C00
0001
1005
400C
1040
07C4
C0FC
C440
1000
01CC
15D4
000D
0004
0DF0
0330
4403
C354
1100
0300
33C0
03C1
7004
C131
0430
531D
303C
0C00
0010
00C0
530C
0040
00FC
C3DC
4D05
011D
D001
0F13
0001
3310
1301
D304
D704
C310
037C
CCC3
4F0F
0300
0C01
1030
C30C
3050
3170
C53C
0034
30C1
1173
0040
730C
F335
0140
00C0
4017
131F
00F3
0040
054C
D401
C10C
5031
40C0
0703
1010
000C
0D30
5004
04CC
0440
3C04
0C30
0703
1003
0003
0030
30C0
D0F4
0D0C
0C0D
0401
D100
4430
0040
0010
3003
C110
1003
3500
1CC0
0000
5140
C400
F1CC
0C1C
3031
101F
17D0
CF0C
3073
0CC1
0034
4C1C
0137
0004
0353
00D0
C0C0
C000
1007
4C04
04DC
0D50
0040
D1C1
4374
5350
0041
CCD3
7005
1300
4300
0000
1C01
400C
1300
0340
0011
30F4
0100
00C0
0033
F003
340C
0003
C040
1003
3040
0030
0000
F550
47C3
4405
C043
0000
0040
00F3
F070

